module attributes {vm.toplevel} {
  vm.module public @module {
    vm.global.ref private mutable @__device_0 : !vm.ref<!hal.device>
    vm.global.ref private mutable @__device_0_executable_0_conv_dynamic_dispatch_0 : !vm.ref<!hal.executable>
    vm.rodata private @_utf8_hal_device_id_C6650FF277232B5A {alignment = 1 : i64} "hal.device.id"
    vm.rodata private @_utf8_local_1A8FF0278D7661D8 {alignment = 1 : i64} "local*"
    vm.rodata private @_utf8_hal_executable_format_E03EECB63A2AAF52 {alignment = 1 : i64} "hal.executable.format"
    vm.rodata private @_utf8_embedded_elf_riscv_64_C3BA011E86B77EF5 {alignment = 1 : i64} "embedded-elf-riscv_64"
    vm.rodata private @conv_dynamic_dispatch_0_embedded_elf_riscv_64 {alignment = 16 : i64, mime_type = "application/x-elf"} dense<"0x7F454C460201010000000000000000000300F30001000000000000000000000040000000000000004011000000000000050000004000380008004000160014000600000004000000400000000000000040000000000000004000000000000000C001000000000000C00100000000000008000000000000000100000004000000000000000000000000000000000000000000000000000000D404000000000000D40400000000000000100000000000000100000005000000D404000000000000D414000000000000D4140000000000002805000000000000280500000000000000100000000000000100000006000000000A000000000000002A000000000000002A000000000000A001000000000000000600000000000000100000000000000200000006000000E00A000000000000E02A000000000000E02A000000000000C000000000000000C000000000000000080000000000000052E5746404000000000A000000000000002A000000000000002A000000000000A0010000000000000006000000000000010000000000000051E57464060000000000000000000000000000000000000000000000000000000000000000000000000000000000000000000000000000000300007004000000F30C00000000000000000000000000000000000000000000F200000000000000F20000000000000001000000000000000000000000000000000000000000000000000000000000000100000012000700E0190000000000001C0000000000000002000000020000000000000001000000000000000000000000697265655F68616C5F65786563757461626C655F6C6962726172795F7175657279000000000000082A00000000000003000000000000009003000000000000182A0000000000000300000000000000D414000000000000202A0000000000000300000000000000F003000000000000302A00000000000003000000000000001F04000000000000482A00000000000003000000000000005804000000000000502A00000000000003000000000000005804000000000000602A0000000000000300000000000000002A000000000000802A0000000000000300000000000000182A000000000000882A0000000000000300000000000000B003000000000000A02A0000000000000300000000000000202A000000000000B82A0000000000000300000000000000282A000000000000C02A0000000000000300000000000000402A000000000000636F6E765F64796E616D69635F64697370617463685F3000000000000000000000000000000000000000180301000000010000000100000000000000000000000000000000000000000000000000000000000000000000000000000000000000636F6E765F64796E616D69635F64697370617463685F305F636F6E765F447844784478447844784478445F6633320064756D702F636F6E666967757265645F6D6F64756C655F636F6E765F64796E616D69635F64697370617463685F302E6D6C69720000000000001000000000000000017A5200017801011B0C02004C00000018000000601000000C0500000002FC0ED00174810188028903920493059406950796089709980A990B9A0C9B0D440C08000A0370030C02D00174C1C8C9D2D3D4D5D6D7D8D9DADB440E00440B10000000680000001C1500001C000000000000000000000083B2850183A6420203E7020203A8420503E5020593960602B3E7E600131708026356F0001388F7FF6F0080003308F04083A6C2053363A7001355F8431355B5033305A80013555540635EF0041305150003E7820593960602634E600433086040B3EEE6009356F84393D6B603B306D80093D65640634E6004B306D040634ED0053307D04183A842001358F7431358B8033307070193535740634ED005B30370406F0080053305A04003E7820593960602E35660FA1308F3FFB3EEE6009356F84393D6B603B306D80093D65640E35660FA93861600E356D0FB1387FEFF83A842001358F7431358B8033307070193535740E356D0FB93831300130101F32334110C2330810C233C910A2338210B2334310B2330410B233C5109233861092334710923308109233C91072338A1072334B1071304010D036706003388D302336607033305A802334FA7023346760283E60200139E0802B3637702935FF503B308E503334517013335A00033F5AF00330FAF40131656003309C3409304000213955300930F0900233824F563529902B363DE003389AE40131E5F0093060900233424F9635499026396C3036F00402F930F0002B363DE003389AE40131E5F0093060900233424F9E34099FE930600026388C32D3307174133470703131757006380E72C630EC32A638CAE2AB38CC3416358902B338DE7406354A02B3388AE406352002F130500026354A82EB308C3406356102F83A3420303AEC20363C4A8009308000203A6C20083A4420103A9C20103E7020383E7820393930302131E0E026344A001130D1000939404021319090203EF820083E9020103EA820183AAC20213160602B3E3E300336EFE006344AD00130D000233E73401B367490193940A0283EA820203ABC204336FE60113A91300132A1E0063449001930C100003B6050283E98204B3E45401931A0B02B385E702B3027E02B38FF301B30BDE0013271F00B367490163C4AC00930C0002233C04F433E53A012330A4F43385E503233CA4F2338592022338A4F633856E022334A4F6033506002338A4F2033586002330A4F6833A0601138BFFFF938BFBFF336CF700D30700F0233494F52330A4F96F008001033584F513051500833C84F4233CA4F463089517033504F5E354A0FE233804F8033584F5033604F43306C502233CC4F6033684F33305A60213152500833904F3B389A9006F008001033504F913051500033D04F82338A4F8E304A5FB033584F8E354A0FE93000000033704F9033584F73305A700033604F73306E602033784F63305A70213162600833704F6B387C7006F00C00093801000E38810FB930C0000B384D002B384A4006F00C00133869401131626003386CA00938C1C002720E600E38A0CFD5387F720E3120CFE130700005387F7206F00C00013071700E308E7FD930F00003306B7023303570213162600131323003386C900338967006F00C000938F1F00E38A7FFCB38E1F00E3CA0EFEE3D86EFF13030000B38E7E03338ACF03939E2E00131A2A00B30DD601330A49016F00C00033036D00E354C3FD330D6E40B30E9301577D0D0DE3C60EFEE3D47EFF939E2E00B38EDD0107E40E02931E2300B30EDA0187E40E0257948492D764004257948406D71680425377D7006FF09FFB13050000130104F38330810C0334010C8334810B0339010B8339810A033A010A833A8109033B0109833B8108033C0108833C8107033D0107833D81061301010D678000001308100013050002E340A8D213080002B308C340E34E10D19308100083A3420303AEC203E3DCA8D06FF09FD11B05A5FF971500003335A0009385C5071305F5FF3375B500678000000000000006000000000000000000000000000000000000000000000000000000000000000000000000000000030000003300000000000000000000000000000000000000000000000000000000000000000000000000000000000000000000000000000000000000000000000000000000000000000000000000000001000000000000000000000000000000000000000000000000000000000000000000000000000000000000000000000000000000000000000000000000000000000000000000000000000000000000000000000000000000000000000000000000000000000000001E000000000000000800000000000000FBFFFF6F000000000100000000000000070000000000000070020000000000000800000000000000200100000000000009000000000000001800000000000000F9FFFF6F000000000C00000000000000060000000000000000020000000000000B000000000000001800000000000000050000000000000048020000000000000A0000000000000023000000000000000400000000000000300200000000000000000000000000000000000000000000011101250E1305030E10171B0EB44219110112060000022E001101120640186E0E030E3A0B3B0B49133F190000032400030E3E0B0B0B0000004B0000000400000000000801670000002C00000000000000000062000000D4140000000000000C05000002D4140000000000000C05000001583300000033000000010147000000032F000000050400636F6E666967757265645F6D6F64756C655F636F6E765F64796E616D69635F64697370617463685F302E6D6C697200696E7400636F6E765F64796E616D69635F64697370617463685F305F636F6E765F447844784478447844784478445F6633320064756D70004952454500410000000200000000004F0000002A000000636F6E765F64796E616D69635F64697370617463685F305F636F6E765F447844784478447844784478445F6633320000000000160000000200000000004F00000047000000696E74000000000041F100000072697363760001E700000004100572763634693270315F6D3270305F613270315F663270325F643270325F633270305F763170305F7A696373723270305F7A6966656E6365693270305F7A6D6D756C3170305F7A61616D6F3170305F7A616C7273633170305F7A66686D696E3170305F7A63613170305F7A63643170305F7A76653332663170305F7A76653332783170305F7A76653634643170305F7A76653634663170305F7A76653634783170305F7A7666683170305F7A7666686D696E3170305F7A766C313238623170305F7A766C323536623170305F7A766C3332623170305F7A766C36346231703000F7010000040046000000010101FB0E0D00010101010000000100000100636F6E666967757265645F6D6F64756C655F636F6E765F64796E616D69635F64697370617463685F302E6D6C6972000000000005080A000902D414000000000000030A01032D4A035B4A03C3004A03494A031A4A4B031D4A03284A0603817F4A03FF0082050003817F4A05080603FF00820603817F083C03FF00BA050003817F82050803FF004A050003817F08E4050803FF004A050003817F08E4050803FF008203817F4A03FF008203817F083C03FF004A03817F4A03FF008203817F083C0603FF0002400105000603817F0874050803FF0082050003817F023801050803FF004A03817F08AC03FF008203817F083C03FF004A050003817F4A050803FF008203817FF203FF004A03817F4A03FF004A03817FBA03FF004A03817FBA03FF008203817F4A0603FF0008E40603817F4A0603FF000228010603817F4A0603FF000224010603817F4A0603FF00022C010603817F4A03FF00025C0103817FF20603FF004A0603817F4A03FF0002300103817FF20603FF004A0603817F4A03FF0002300103817F820603FF00F20603817F087403FF00083C03817F820603FF004A08AC0603817FF20603FF00022401820603817FF20603FF004A023019060B4A03FA7E0240010603FF00820603817F4A03FF004A03817F8203FF00BA020800010149524545000000000000000000000000000000000000000000000000000000002300000000020900E02A00000000000000000000000000000100000012000700E0190000000000001C00000000000000002E64796E73796D002E68617368002E64796E737472002E72656C612E64796E002E726F64617461002E65685F6672616D65002E74657874002E646174612E72656C2E726F002E64796E616D6963002E72656C726F5F70616464696E67002E64656275675F616262726576002E64656275675F696E666F002E64656275675F737472002E64656275675F7075626E616D6573002E64656275675F7075627479706573002E72697363762E61747472696275746573002E64656275675F6C696E65002E636F6D6D656E74002E73796D746162002E7368737472746162002E7374727461620000697265655F68616C5F65786563757461626C655F6C6962726172795F7175657279005F44594E414D49430000000000000000000000000000000000000000000000000000000000000000000000000000000000000000000000000000000000000000000000000000000000010000000B0000000200000000000000000200000000000000020000000000003000000000000000030000000100000008000000000000001800000000000000090000000500000002000000000000003002000000000000300200000000000018000000000000000100000000000000040000000000000004000000000000000F000000030000000200000000000000480200000000000048020000000000002300000000000000000000000000000001000000000000000000000000000000170000000400000002000000000000007002000000000000700200000000000020010000000000000100000000000000080000000000000018000000000000002100000001000000020000000000000090030000000000009003000000000000C80000000000000000000000000000001000000000000000000000000000000029000000010000000200000000000000580400000000000058040000000000007C0000000000000000000000000000000800000000000000000000000000000033000000010000000600000000000000D414000000000000D404000000000000280500000000000000000000000000000400000000000000000000000000000039000000010000000300000000000000002A000000000000000A000000000000E00000000000000000000000000000001000000000000000000000000000000046000000060000000300000000000000E02A000000000000E00A000000000000C0000000000000000300000000000000080000000000000010000000000000004F000000080000000300000000000000A02B000000000000A00B00000000000060040000000000000000000000000000010000000000000000000000000000005E0000000100000000000000000000000000000000000000A00B00000000000039000000000000000000000000000000010000000000000000000000000000006C0000000100000000000000000000000000000000000000D90B0000000000004F00000000000000000000000000000001000000000000000000000000000000780000000100000030000000000000000000000000000000280C0000000000006C00000000000000000000000000000001000000000000000100000000000000830000000100000000000000000000000000000000000000940C0000000000004500000000000000000000000000000001000000000000000000000000000000930000000100000000000000000000000000000000000000D90C0000000000001A00000000000000000000000000000001000000000000000000000000000000A30000000300007000000000000000000000000000000000F30C000000000000F200000000000000000000000000000001000000000000000000000000000000B50000000100000000000000000000000000000000000000E50D000000000000FB01000000000000000000000000000001000000000000000000000000000000C10000000100000030000000000000000000000000000000E00F0000000000000500000000000000000000000000000001000000000000000100000000000000CA0000000200000000000000000000000000000000000000E80F0000000000004800000000000000150000000200000008000000000000001800000000000000D200000003000000000000000000000000000000000000003010000000000000E400000000000000000000000000000001000000000000000000000000000000DC000000030000000000000000000000000000000000000014110000000000002C00000000000000000000000000000001000000000000000000000000000000"> : vector<5824xi8>
    vm.import private @hal.buffer.assert(%buffer : !vm.ref<!hal.buffer>, %message : !vm.buffer, %allocator : !vm.ref<!hal.allocator>, %minimum_length : i64, %memory_types : i32, %buffer_usage : i32)
    vm.import private @hal.buffer_view.create(%buffer : !vm.ref<!hal.buffer>, %source_offset : i64, %source_length : i64, %element_type : i32, %encoding_type : i32, %shape : i64 ...) -> !vm.ref<!hal.buffer_view> attributes {nosideeffects}
    vm.import private @hal.buffer_view.assert(%buffer_view : !vm.ref<!hal.buffer_view>, %message : !vm.buffer, %element_type : i32, %encoding_type : i32, %shape : i64 ...)
    vm.import private @hal.buffer_view.buffer(%buffer_view : !vm.ref<!hal.buffer_view>) -> !vm.ref<!hal.buffer> attributes {nosideeffects}
    vm.import private @hal.buffer_view.dim(%buffer_view : !vm.ref<!hal.buffer_view>, %index : i32) -> i64 attributes {nosideeffects}
    vm.import private @hal.command_buffer.create(%device : !vm.ref<!hal.device>, %modes : i32, %command_categories : i32, %queue_affinity : i64, %binding_capacity : i32) -> !vm.ref<!hal.command_buffer> attributes {minimum_version = 6 : i32}
    vm.import private @hal.command_buffer.finalize(%command_buffer : !vm.ref<!hal.command_buffer>)
    vm.import private @hal.command_buffer.execution_barrier(%command_buffer : !vm.ref<!hal.command_buffer>, %source_stage_mask : i32, %target_stage_mask : i32, %flags : i64)
    vm.import private @hal.command_buffer.dispatch(%command_buffer : !vm.ref<!hal.command_buffer>, %executable : !vm.ref<!hal.executable>, %entry_point : i32, %workgroup_x : i32, %workgroup_y : i32, %workgroup_z : i32, %flags : i64, %constants : i32 ..., %bindings : tuple<i32, i32, !vm.ref<!hal.buffer>, i64, i64> ...)
    vm.import private @hal.device.allocator(%device : !vm.ref<!hal.device>) -> !vm.ref<!hal.allocator> attributes {nosideeffects}
    vm.import private @hal.device.query.i64(%device : !vm.ref<!hal.device>, %category : !vm.buffer, %key : !vm.buffer) -> (i32, i64) attributes {nosideeffects}
    vm.import private @hal.device.queue.execute(%device : !vm.ref<!hal.device>, %queue_affinity : i64, %wait_fence : !vm.ref<!hal.fence>, %signal_fence : !vm.ref<!hal.fence>, %command_buffer : !vm.ref<!hal.command_buffer>, %flags : i64)
    vm.import private @hal.devices.count() -> i32 attributes {nosideeffects}
    vm.import private @hal.devices.get(%index : i32) -> !vm.ref<!hal.device> attributes {nosideeffects}
    vm.import private @hal.executable.create(%device : !vm.ref<!hal.device>, %queue_affinity : i64, %executable_format : !vm.buffer, %executable_data : !vm.buffer, %constants : !vm.buffer) -> !vm.ref<!hal.executable> attributes {nosideeffects}
    vm.import private @hal.fence.create(%device : !vm.ref<!hal.device>, %flags : i64) -> !vm.ref<!hal.fence>
    vm.import private @hal.fence.await(%timeout_millis : i32, %flags : i64, %fences : !vm.ref<!hal.fence> ...) -> i32 attributes {vm.yield}
    vm.rodata private @_utf8_input0_DCE99660CEB3F6B {alignment = 1 : i64} "input0"
    vm.rodata private @_utf8_tensor_FC1814BC4A58F22A {alignment = 1 : i64} "tensor"
    vm.rodata private @_utf8_input1_B898B726583C85DA {alignment = 1 : i64} "input1"
    vm.rodata private @_utf8_input2_396EAC3FD425AA3E {alignment = 1 : i64} "input2"
    vm.func private @conv_dynamic(%arg0: !vm.ref<!hal.buffer_view>, %arg1: !vm.ref<!hal.buffer_view>, %arg2: !vm.ref<!hal.buffer_view>) -> !vm.ref<!hal.buffer_view> attributes {iree.reflection = {iree.abi.declaration = "sync func @conv_dynamic(%input0: tensor<?x?x?x?xf32>, %input1: tensor<?x?x?x?xf32>, %input2: tensor<?x?x?x?xf32>) -> (%output0: tensor<?x?x?x?xf32>)"}} {
      %c13 = vm.const.i32 13
      %c28 = vm.const.i32 28
      %c17 = vm.const.i32 17
      %c32 = vm.const.i32 32
      %c3075 = vm.const.i32 3075
      %c16 = vm.const.i32 16
      %c553648160 = vm.const.i32 553648160
      %c3 = vm.const.i32 3
      %c2 = vm.const.i32 2
      %c1 = vm.const.i32 1
      %zero = vm.const.i32.zero
      %c-1 = vm.const.i32 -1
      %null = vm.const.ref.zero : !vm.ref<!hal.fence>
      %c1_0 = vm.const.i64 1
      %c32_1 = vm.const.i64 32
      %c-1_2 = vm.const.i64 -1
      %zero_3 = vm.const.i64.zero
      %c4 = vm.const.i64 4
      %__device_0 = vm.global.load.ref @__device_0 : !vm.ref<!hal.device>
      %__device_0_executable_0_conv_dynamic_dispatch_0 = vm.global.load.ref @__device_0_executable_0_conv_dynamic_dispatch_0 : !vm.ref<!hal.executable>
      %0 = vm.call @hal.buffer_view.dim(%arg0, %zero) {nosideeffects} : (!vm.ref<!hal.buffer_view>, i32) -> i64
      %1 = vm.call @hal.buffer_view.dim(%arg0, %c1) {nosideeffects} : (!vm.ref<!hal.buffer_view>, i32) -> i64
      %2 = vm.call @hal.buffer_view.dim(%arg0, %c2) {nosideeffects} : (!vm.ref<!hal.buffer_view>, i32) -> i64
      %3 = vm.call @hal.buffer_view.dim(%arg0, %c3) {nosideeffects} : (!vm.ref<!hal.buffer_view>, i32) -> i64
      %_utf8_input0_DCE99660CEB3F6B = vm.const.ref.rodata @_utf8_input0_DCE99660CEB3F6B : !vm.buffer
      vm.call.variadic @hal.buffer_view.assert(%arg0, %_utf8_input0_DCE99660CEB3F6B, %c553648160, %c1, [%0, %1, %2, %3]) : (!vm.ref<!hal.buffer_view>, !vm.buffer, i32, i32, i64 ...)
      %4 = vm.mul.i64 %0, %c4 : i64
      %5 = vm.mul.i64 %4, %1 : i64
      %6 = vm.mul.i64 %5, %2 : i64
      %7 = vm.mul.i64 %6, %3 : i64
      %ref = vm.call @hal.buffer_view.buffer(%arg0) {nosideeffects} : (!vm.ref<!hal.buffer_view>) -> !vm.ref<!hal.buffer>
      %ref_4 = vm.call @hal.device.allocator(%__device_0) {nosideeffects} : (!vm.ref<!hal.device>) -> !vm.ref<!hal.allocator>
      %_utf8_tensor_FC1814BC4A58F22A = vm.const.ref.rodata @_utf8_tensor_FC1814BC4A58F22A : !vm.buffer
      vm.call @hal.buffer.assert(%ref, %_utf8_tensor_FC1814BC4A58F22A, %ref_4, %7, %c16, %c3075) : (!vm.ref<!hal.buffer>, !vm.buffer, !vm.ref<!hal.allocator>, i64, i32, i32) -> ()
      %8 = vm.call @hal.buffer_view.dim(%arg1, %zero) {nosideeffects} : (!vm.ref<!hal.buffer_view>, i32) -> i64
      %9 = vm.call @hal.buffer_view.dim(%arg1, %c1) {nosideeffects} : (!vm.ref<!hal.buffer_view>, i32) -> i64
      %10 = vm.call @hal.buffer_view.dim(%arg1, %c2) {nosideeffects} : (!vm.ref<!hal.buffer_view>, i32) -> i64
      %11 = vm.call @hal.buffer_view.dim(%arg1, %c3) {nosideeffects} : (!vm.ref<!hal.buffer_view>, i32) -> i64
      %_utf8_input1_B898B726583C85DA = vm.const.ref.rodata @_utf8_input1_B898B726583C85DA : !vm.buffer
      vm.call.variadic @hal.buffer_view.assert(%arg1, %_utf8_input1_B898B726583C85DA, %c553648160, %c1, [%8, %9, %10, %11]) : (!vm.ref<!hal.buffer_view>, !vm.buffer, i32, i32, i64 ...)
      %12 = vm.mul.i64 %8, %c4 : i64
      %13 = vm.mul.i64 %12, %9 : i64
      %14 = vm.mul.i64 %13, %10 : i64
      %15 = vm.mul.i64 %14, %11 : i64
      %ref_5 = vm.call @hal.buffer_view.buffer(%arg1) {nosideeffects} : (!vm.ref<!hal.buffer_view>) -> !vm.ref<!hal.buffer>
      vm.call @hal.buffer.assert(%ref_5, %_utf8_tensor_FC1814BC4A58F22A, %ref_4, %15, %c16, %c3075) : (!vm.ref<!hal.buffer>, !vm.buffer, !vm.ref<!hal.allocator>, i64, i32, i32) -> ()
      %16 = vm.call @hal.buffer_view.dim(%arg2, %zero) {nosideeffects} : (!vm.ref<!hal.buffer_view>, i32) -> i64
      %17 = vm.call @hal.buffer_view.dim(%arg2, %c1) {nosideeffects} : (!vm.ref<!hal.buffer_view>, i32) -> i64
      %18 = vm.call @hal.buffer_view.dim(%arg2, %c2) {nosideeffects} : (!vm.ref<!hal.buffer_view>, i32) -> i64
      %19 = vm.call @hal.buffer_view.dim(%arg2, %c3) {nosideeffects} : (!vm.ref<!hal.buffer_view>, i32) -> i64
      %_utf8_input2_396EAC3FD425AA3E = vm.const.ref.rodata @_utf8_input2_396EAC3FD425AA3E : !vm.buffer
      vm.call.variadic @hal.buffer_view.assert(%arg2, %_utf8_input2_396EAC3FD425AA3E, %c553648160, %c1, [%16, %17, %18, %19]) : (!vm.ref<!hal.buffer_view>, !vm.buffer, i32, i32, i64 ...)
      %20 = vm.mul.i64 %16, %c4 : i64
      %21 = vm.mul.i64 %20, %17 : i64
      %22 = vm.mul.i64 %21, %18 : i64
      %23 = vm.mul.i64 %22, %19 : i64
      %ref_6 = vm.call @hal.buffer_view.buffer(%arg2) {nosideeffects} : (!vm.ref<!hal.buffer_view>) -> !vm.ref<!hal.buffer>
      vm.call @hal.buffer.assert(%ref_6, %_utf8_tensor_FC1814BC4A58F22A, %ref_4, %23, %c16, %c3075) : (!vm.ref<!hal.buffer>, !vm.buffer, !vm.ref<!hal.allocator>, i64, i32, i32) -> ()
      %24 = vm.trunc.i64.i32 %0 : i64 -> i32
      %25 = vm.shr.i64.u %0, %c32 : i64
      %26 = vm.trunc.i64.i32 %25 : i64 -> i32
      %27 = vm.trunc.i64.i32 %1 : i64 -> i32
      %28 = vm.shr.i64.u %1, %c32 : i64
      %29 = vm.trunc.i64.i32 %28 : i64 -> i32
      %30 = vm.trunc.i64.i32 %2 : i64 -> i32
      %31 = vm.shr.i64.u %2, %c32 : i64
      %32 = vm.trunc.i64.i32 %31 : i64 -> i32
      %33 = vm.trunc.i64.i32 %3 : i64 -> i32
      %34 = vm.shr.i64.u %3, %c32 : i64
      %35 = vm.trunc.i64.i32 %34 : i64 -> i32
      %36 = vm.trunc.i64.i32 %8 : i64 -> i32
      %37 = vm.shr.i64.u %8, %c32 : i64
      %38 = vm.trunc.i64.i32 %37 : i64 -> i32
      %39 = vm.trunc.i64.i32 %9 : i64 -> i32
      %40 = vm.shr.i64.u %9, %c32 : i64
      %41 = vm.trunc.i64.i32 %40 : i64 -> i32
      %42 = vm.trunc.i64.i32 %10 : i64 -> i32
      %43 = vm.shr.i64.u %10, %c32 : i64
      %44 = vm.trunc.i64.i32 %43 : i64 -> i32
      %45 = vm.trunc.i64.i32 %11 : i64 -> i32
      %46 = vm.shr.i64.u %11, %c32 : i64
      %47 = vm.trunc.i64.i32 %46 : i64 -> i32
      %48 = vm.trunc.i64.i32 %16 : i64 -> i32
      %49 = vm.shr.i64.u %16, %c32 : i64
      %50 = vm.trunc.i64.i32 %49 : i64 -> i32
      %51 = vm.trunc.i64.i32 %17 : i64 -> i32
      %52 = vm.shr.i64.u %17, %c32 : i64
      %53 = vm.trunc.i64.i32 %52 : i64 -> i32
      %54 = vm.trunc.i64.i32 %18 : i64 -> i32
      %55 = vm.shr.i64.u %18, %c32 : i64
      %56 = vm.trunc.i64.i32 %55 : i64 -> i32
      %57 = vm.trunc.i64.i32 %19 : i64 -> i32
      %58 = vm.shr.i64.u %19, %c32 : i64
      %59 = vm.trunc.i64.i32 %58 : i64 -> i32
      %ref_7 = vm.call @hal.command_buffer.create(%__device_0, %c17, %c3, %c-1_2, %zero) : (!vm.ref<!hal.device>, i32, i32, i64, i32) -> !vm.ref<!hal.command_buffer>
      %ult = vm.cmp.lt.i64.u %zero_3, %0 : i64
      %60 = vm.xor.i32 %ult, %c1 : i32
      %61 = vm.sub.i64 %zero_3, %0 : i64
      %62 = vm.sub.i64 %0, %c1_0 : i64
      %63 = vm.select.i64 %60, %61, %62 : i64
      %64 = vm.div.i64.s %63, %c32_1 : i64
      %65 = vm.sub.i64 %zero_3, %64 : i64
      %66 = vm.add.i64 %64, %c1_0 : i64
      %67 = vm.select.i64 %60, %65, %66 : i64
      %ult_8 = vm.cmp.lt.i64.u %zero_3, %8 : i64
      %68 = vm.xor.i32 %ult_8, %c1 : i32
      %69 = vm.sub.i64 %zero_3, %8 : i64
      %70 = vm.sub.i64 %8, %c1_0 : i64
      %71 = vm.select.i64 %68, %69, %70 : i64
      %72 = vm.div.i64.s %71, %c32_1 : i64
      %73 = vm.sub.i64 %zero_3, %72 : i64
      %74 = vm.add.i64 %72, %c1_0 : i64
      %75 = vm.select.i64 %68, %73, %74 : i64
      %ult_9 = vm.cmp.lt.i64.u %zero_3, %18 : i64
      %76 = vm.xor.i32 %ult_9, %c1 : i32
      %77 = vm.sub.i64 %zero_3, %18 : i64
      %78 = vm.sub.i64 %18, %c1_0 : i64
      %79 = vm.select.i64 %76, %77, %78 : i64
      %80 = vm.div.i64.s %79, %c32_1 : i64
      %81 = vm.sub.i64 %zero_3, %80 : i64
      %82 = vm.add.i64 %80, %c1_0 : i64
      %83 = vm.select.i64 %76, %81, %82 : i64
      %ult_10 = vm.cmp.lt.i64.u %zero_3, %19 : i64
      %84 = vm.xor.i32 %ult_10, %c1 : i32
      %85 = vm.sub.i64 %zero_3, %19 : i64
      %86 = vm.sub.i64 %19, %c1_0 : i64
      %87 = vm.select.i64 %84, %85, %86 : i64
      %88 = vm.div.i64.s %87, %c32_1 : i64
      %89 = vm.sub.i64 %zero_3, %88 : i64
      %90 = vm.add.i64 %88, %c1_0 : i64
      %91 = vm.select.i64 %84, %89, %90 : i64
      %92 = vm.mul.i64 %83, %91 : i64
      %93 = vm.mul.i64 %75, %92 : i64
      %94 = vm.mul.i64 %67, %93 : i64
      %95 = vm.trunc.i64.i32 %94 : i64 -> i32
      vm.call.variadic @hal.command_buffer.dispatch(%ref_7, %__device_0_executable_0_conv_dynamic_dispatch_0, %zero, %95, %c1, %c1, %zero_3, [%24, %26, %27, %29, %30, %32, %33, %35, %36, %38, %39, %41, %42, %44, %45, %47, %48, %50, %51, %53, %54, %56, %57, %59], [(%zero, %zero, %ref, %zero_3, %7), (%zero, %zero, %ref_5, %zero_3, %15), (%zero, %zero, %ref_6, %zero_3, %23)]) : (!vm.ref<!hal.command_buffer>, !vm.ref<!hal.executable>, i32, i32, i32, i32, i64, i32 ..., tuple<i32, i32, !vm.ref<!hal.buffer>, i64, i64> ...)
      vm.call @hal.command_buffer.execution_barrier(%ref_7, %c28, %c13, %zero_3) : (!vm.ref<!hal.command_buffer>, i32, i32, i64) -> ()
      vm.call @hal.command_buffer.finalize(%ref_7) : (!vm.ref<!hal.command_buffer>) -> ()
      %ref_11 = vm.call @hal.fence.create(%__device_0, %zero_3) : (!vm.ref<!hal.device>, i64) -> !vm.ref<!hal.fence>
      vm.call @hal.device.queue.execute(%__device_0, %c-1_2, %null, %ref_11, %ref_7, %zero_3) : (!vm.ref<!hal.device>, i64, !vm.ref<!hal.fence>, !vm.ref<!hal.fence>, !vm.ref<!hal.command_buffer>, i64) -> ()
      %96 = vm.call.variadic @hal.fence.await(%c-1, %zero_3, [%ref_11]) : (i32, i64, !vm.ref<!hal.fence> ...) -> i32
      vm.cond_br %96, ^bb2, ^bb1
    ^bb1:  // pred: ^bb0
      %ref_12 = vm.call.variadic @hal.buffer_view.create(%ref_6, %zero_3, %23, %c553648160, %c1, [%16, %17, %18, %19]) {nosideeffects} : (!vm.ref<!hal.buffer>, i64, i64, i32, i32, i64 ...) -> !vm.ref<!hal.buffer_view>
      vm.return %ref_12 : !vm.ref<!hal.buffer_view>
    ^bb2:  // pred: ^bb0
      vm.fail %96, "failed to wait on timepoint"
    }
    vm.export @conv_dynamic attributes {iree.abi.stub, iree.reflection = {iree.abi.declaration = "sync func @conv_dynamic(%input0: tensor<?x?x?x?xf32>, %input1: tensor<?x?x?x?xf32>, %input2: tensor<?x?x?x?xf32>) -> (%output0: tensor<?x?x?x?xf32>)"}}
    vm.export @__init
    vm.func private @__init() {
      %c1 = vm.const.i32 1
      %null = vm.const.ref.zero : !vm.buffer
      %c-1 = vm.const.i64 -1
      %c14 = vm.const.i32 14
      %c18 = vm.const.i32 18
      %zero = vm.const.i32.zero
      %zero_0 = vm.const.i64.zero
      %c1_1 = vm.const.i64 1
      %null_2 = vm.const.ref.zero : !vm.ref<!hal.device>
      %0 = vm.call @hal.devices.count() {nosideeffects} : () -> i32
      %1 = vm.ext.i32.i64.s %0 : i32 -> i64
      vm.br ^bb1(%zero_0, %zero_0, %null_2 : i64, i64, !vm.ref<!hal.device>)
    ^bb1(%2: i64, %3: i64, %4: !vm.ref<!hal.device>):  // 2 preds: ^bb0, ^bb4
      %rnz = vm.cmp.nz.ref %4 : !vm.ref<!hal.device>
      %5 = vm.xor.i32 %rnz, %c1 : i32
      %slt = vm.cmp.lt.i64.s %2, %1 : i64
      %6 = vm.and.i32 %5, %slt : i32
      vm.cond_br %6, ^bb2, ^bb5
    ^bb2:  // pred: ^bb1
      %7 = vm.trunc.i64.i32 %2 : i64 -> i32
      %ref = vm.call @hal.devices.get(%7) {nosideeffects} : (i32) -> !vm.ref<!hal.device>
      %_utf8_hal_device_id_C6650FF277232B5A = vm.const.ref.rodata @_utf8_hal_device_id_C6650FF277232B5A : !vm.buffer
      %_utf8_local_1A8FF0278D7661D8 = vm.const.ref.rodata @_utf8_local_1A8FF0278D7661D8 : !vm.buffer
      %8:2 = vm.call @hal.device.query.i64(%ref, %_utf8_hal_device_id_C6650FF277232B5A, %_utf8_local_1A8FF0278D7661D8) {nosideeffects} : (!vm.ref<!hal.device>, !vm.buffer, !vm.buffer) -> (i32, i64)
      %nz = vm.cmp.nz.i64 %8#1 : i64
      %9 = vm.select.i32 %8#0, %nz, %zero : i32
      vm.cond_br %9, ^bb3, ^bb4(%zero : i32)
    ^bb3:  // pred: ^bb2
      %_utf8_hal_executable_format_E03EECB63A2AAF52 = vm.const.ref.rodata @_utf8_hal_executable_format_E03EECB63A2AAF52 : !vm.buffer
      %_utf8_embedded_elf_riscv_64_C3BA011E86B77EF5 = vm.const.ref.rodata @_utf8_embedded_elf_riscv_64_C3BA011E86B77EF5 : !vm.buffer
      %10:2 = vm.call @hal.device.query.i64(%ref, %_utf8_hal_executable_format_E03EECB63A2AAF52, %_utf8_embedded_elf_riscv_64_C3BA011E86B77EF5) {nosideeffects} : (!vm.ref<!hal.device>, !vm.buffer, !vm.buffer) -> (i32, i64)
      %nz_3 = vm.cmp.nz.i64 %10#1 : i64
      %11 = vm.select.i32 %10#0, %nz_3, %zero : i32
      vm.br ^bb4(%11 : i32)
    ^bb4(%12: i32):  // 2 preds: ^bb2, ^bb3
      %eq = vm.cmp.eq.i64 %3, %zero_0 : i64
      %13 = vm.select.i64 %12, %c1_1, %zero_0 : i64
      %14 = vm.add.i64 %3, %13 : i64
      %15 = vm.and.i32 %12, %eq : i32
      %ref_4 = vm.select.ref %15, %ref, %null_2 : !vm.ref<!hal.device>
      %16 = vm.add.i64 %2, %c1_1 : i64
      vm.br ^bb1(%16, %14, %ref_4 : i64, i64, !vm.ref<!hal.device>)
    ^bb5:  // pred: ^bb1
      vm.cond_br %5, ^bb6, ^bb7
    ^bb6:  // pred: ^bb5
      vm.fail %c18, "HAL device `__device_0` not found or unavailable: #hal.device.target<\22local\22, [#hal.executable.target<\22llvm-cpu\22, \22embedded-elf-riscv_64\22, {cpu = \22\22, cpu_features = \22+m,+a,+f,+d,+zvl256b,+v\22, data_layout = \22e-m:e-p:64:64-i64:64-i128:128-n32:64-S128\22, iree.encoding.resolver = #iree_cpu.cpu_encoding_resolver<>, max_stack_allocation_size = 32768 : i64, native_vector_size = 64 : i64, target_abi = \22lp64d\22, target_triple = \22riscv64-unknown-unknown-eabi-elf\22, ukernels = \22all\22}>]>"
    ^bb7:  // pred: ^bb5
      %_utf8_hal_executable_format_E03EECB63A2AAF52_5 = vm.const.ref.rodata @_utf8_hal_executable_format_E03EECB63A2AAF52 : !vm.buffer
      %_utf8_embedded_elf_riscv_64_C3BA011E86B77EF5_6 = vm.const.ref.rodata @_utf8_embedded_elf_riscv_64_C3BA011E86B77EF5 : !vm.buffer
      %17:2 = vm.call @hal.device.query.i64(%4, %_utf8_hal_executable_format_E03EECB63A2AAF52_5, %_utf8_embedded_elf_riscv_64_C3BA011E86B77EF5_6) {nosideeffects} : (!vm.ref<!hal.device>, !vm.buffer, !vm.buffer) -> (i32, i64)
      %nz_7 = vm.cmp.nz.i64 %17#1 : i64
      %18 = vm.select.i32 %17#0, %nz_7, %zero : i32
      %19 = vm.select.i64 %18, %zero_0, %c-1 : i64
      %eq_8 = vm.cmp.eq.i64 %19, %zero_0 : i64
      vm.global.store.ref %4, @__device_0 : !vm.ref<!hal.device>
      vm.cond_br %eq_8, ^bb8, ^bb9
    ^bb8:  // pred: ^bb7
      %conv_dynamic_dispatch_0_embedded_elf_riscv_64 = vm.const.ref.rodata @conv_dynamic_dispatch_0_embedded_elf_riscv_64 : !vm.buffer
      %ref_9 = vm.call @hal.executable.create(%4, %c-1, %_utf8_embedded_elf_riscv_64_C3BA011E86B77EF5_6, %conv_dynamic_dispatch_0_embedded_elf_riscv_64, %null) {nosideeffects} : (!vm.ref<!hal.device>, i64, !vm.buffer, !vm.buffer, !vm.buffer) -> !vm.ref<!hal.executable>
      vm.global.store.ref %ref_9, @__device_0_executable_0_conv_dynamic_dispatch_0 : !vm.ref<!hal.executable>
      vm.return
    ^bb9:  // pred: ^bb7
      vm.fail %c14, "HAL device `__device_0` does not support any variant of executable `conv_dynamic_dispatch_0`; available formats: [embedded-elf-riscv_64]"
    }
  }
}
