module {
  util.global private @__device_0 : !hal.device
  util.initializer {
    %c18_i32 = arith.constant 18 : i32
    %false = arith.constant false
    %c0 = arith.constant 0 : index
    %c1 = arith.constant 1 : index
    %0 = util.null : !hal.device
    %device_count = hal.devices.count : index
    cf.br ^bb1(%c0, %c0, %0 : index, index, !hal.device)
  ^bb1(%1: index, %2: index, %3: !hal.device):  // 2 preds: ^bb0, ^bb4
    %4 = util.cmp.eq %3, %0 : !hal.device
    %5 = arith.cmpi slt, %1, %device_count : index
    %6 = arith.andi %4, %5 : i1
    cf.cond_br %6, ^bb2, ^bb5
  ^bb2:  // pred: ^bb1
    %device_n = hal.devices.get %1 : !hal.device
    %ok, %value = hal.device.query<%device_n : !hal.device> key("hal.device.id" :: "local*") : i1, i1 = false
    cf.cond_br %value, ^bb3, ^bb4(%false : i1)
  ^bb3:  // pred: ^bb2
    %ok_0, %value_1 = hal.device.query<%device_n : !hal.device> key("hal.executable.format" :: "embedded-elf-riscv_64") : i1, i1 = false
    cf.br ^bb4(%value_1 : i1)
  ^bb4(%7: i1):  // 2 preds: ^bb2, ^bb3
    %8 = arith.cmpi eq, %2, %c0 : index
    %9 = arith.select %7, %c1, %c0 : index
    %10 = arith.addi %2, %9 : index
    %11 = arith.andi %7, %8 : i1
    %12 = arith.select %11, %device_n, %0 : !hal.device
    %13 = arith.addi %1, %c1 : index
    cf.br ^bb1(%13, %10, %12 : index, index, !hal.device)
  ^bb5:  // pred: ^bb1
    cf.cond_br %4, ^bb6, ^bb7
  ^bb6:  // pred: ^bb5
    util.status.check_ok %c18_i32, "HAL device `__device_0` not found or unavailable: #hal.device.target<\22local\22, [#hal.executable.target<\22llvm-cpu\22, \22embedded-elf-riscv_64\22, {cpu = \22\22, cpu_features = \22+m,+a,+f,+d,+zvl256b,+v\22, data_layout = \22e-m:e-p:64:64-i64:64-i128:128-n32:64-S128\22, iree.encoding.resolver = #iree_cpu.cpu_encoding_resolver<>, max_stack_allocation_size = 32768 : i64, native_vector_size = 64 : i64, target_abi = \22lp64d\22, target_triple = \22riscv64-unknown-unknown-eabi-elf\22, ukernels = \22all\22}>]>"
    cf.br ^bb7
  ^bb7:  // 2 preds: ^bb5, ^bb6
    util.global.store %3, @__device_0 : !hal.device
    util.return
  }
  util.global private @__device_0_query_0_hal_executable_format_embedded_elf_riscv_64 : i1
  util.initializer {
    %__device_0 = util.global.load @__device_0 : !hal.device
    %ok, %value = hal.device.query<%__device_0 : !hal.device> key("hal.executable.format" :: "embedded-elf-riscv_64") : i1, i1 = false
    util.global.store %value, @__device_0_query_0_hal_executable_format_embedded_elf_riscv_64 : i1
    util.return
  }
  util.global private @__device_0_executable_0_conv_dynamic_dispatch_0 : !hal.executable
  util.initializer {
    %0 = util.null : !hal.executable
    %c14_i32 = arith.constant 14 : i32
    %c0 = arith.constant 0 : index
    %c-1 = arith.constant -1 : index
    %c-1_i64 = arith.constant -1 : i64
    %__device_0_query_0_hal_executable_format_embedded_elf_riscv_64 = util.global.load @__device_0_query_0_hal_executable_format_embedded_elf_riscv_64 : i1
    %__device_0 = util.global.load @__device_0 : !hal.device
    %1 = arith.select %__device_0_query_0_hal_executable_format_embedded_elf_riscv_64, %c0, %c-1 : index
    %2 = arith.cmpi eq, %1, %c0 : index
    cf.cond_br %2, ^bb1, ^bb2
  ^bb1:  // pred: ^bb0
    %executable = hal.executable.create device(%__device_0 : !hal.device) affinity(%c-1_i64) target(@conv_dynamic_dispatch_0::@embedded_elf_riscv_64) : !hal.executable
    cf.br ^bb3(%executable : !hal.executable)
  ^bb2:  // pred: ^bb0
    util.status.check_ok %c14_i32, "HAL device `__device_0` does not support any variant of executable `conv_dynamic_dispatch_0`; available formats: [embedded-elf-riscv_64]"
    cf.br ^bb3(%0 : !hal.executable)
  ^bb3(%3: !hal.executable):  // 2 preds: ^bb1, ^bb2
    util.global.store %3, @__device_0_executable_0_conv_dynamic_dispatch_0 : !hal.executable
    util.return
  }
  hal.executable private @conv_dynamic_dispatch_0 {
    hal.executable.binary public @embedded_elf_riscv_64 attributes {data = dense<"0x7F454C460201010000000000000000000300F30001000000000000000000000040000000000000004011000000000000050000004000380008004000160014000600000004000000400000000000000040000000000000004000000000000000C001000000000000C00100000000000008000000000000000100000004000000000000000000000000000000000000000000000000000000D404000000000000D40400000000000000100000000000000100000005000000D404000000000000D414000000000000D4140000000000002805000000000000280500000000000000100000000000000100000006000000000A000000000000002A000000000000002A000000000000A001000000000000000600000000000000100000000000000200000006000000E00A000000000000E02A000000000000E02A000000000000C000000000000000C000000000000000080000000000000052E5746404000000000A000000000000002A000000000000002A000000000000A0010000000000000006000000000000010000000000000051E57464060000000000000000000000000000000000000000000000000000000000000000000000000000000000000000000000000000000300007004000000F30C00000000000000000000000000000000000000000000F200000000000000F20000000000000001000000000000000000000000000000000000000000000000000000000000000100000012000700E0190000000000001C0000000000000002000000020000000000000001000000000000000000000000697265655F68616C5F65786563757461626C655F6C6962726172795F7175657279000000000000082A00000000000003000000000000009003000000000000182A0000000000000300000000000000D414000000000000202A0000000000000300000000000000F003000000000000302A00000000000003000000000000001F04000000000000482A00000000000003000000000000005804000000000000502A00000000000003000000000000005804000000000000602A0000000000000300000000000000002A000000000000802A0000000000000300000000000000182A000000000000882A0000000000000300000000000000B003000000000000A02A0000000000000300000000000000202A000000000000B82A0000000000000300000000000000282A000000000000C02A0000000000000300000000000000402A000000000000636F6E765F64796E616D69635F64697370617463685F3000000000000000000000000000000000000000180301000000010000000100000000000000000000000000000000000000000000000000000000000000000000000000000000000000636F6E765F64796E616D69635F64697370617463685F305F636F6E765F447844784478447844784478445F6633320064756D702F636F6E666967757265645F6D6F64756C655F636F6E765F64796E616D69635F64697370617463685F302E6D6C69720000000000001000000000000000017A5200017801011B0C02004C00000018000000601000000C0500000002FC0ED00174810188028903920493059406950796089709980A990B9A0C9B0D440C08000A0370030C02D00174C1C8C9D2D3D4D5D6D7D8D9DADB440E00440B10000000680000001C1500001C000000000000000000000083B2850183A6420203E7020203A8420503E5020593960602B3E7E600131708026356F0001388F7FF6F0080003308F04083A6C2053363A7001355F8431355B5033305A80013555540635EF0041305150003E7820593960602634E600433086040B3EEE6009356F84393D6B603B306D80093D65640634E6004B306D040634ED0053307D04183A842001358F7431358B8033307070193535740634ED005B30370406F0080053305A04003E7820593960602E35660FA1308F3FFB3EEE6009356F84393D6B603B306D80093D65640E35660FA93861600E356D0FB1387FEFF83A842001358F7431358B8033307070193535740E356D0FB93831300130101F32334110C2330810C233C910A2338210B2334310B2330410B233C5109233861092334710923308109233C91072338A1072334B1071304010D036706003388D302336607033305A802334FA7023346760283E60200139E0802B3637702935FF503B308E503334517013335A00033F5AF00330FAF40131656003309C3409304000213955300930F0900233824F563529902B363DE003389AE40131E5F0093060900233424F9635499026396C3036F00402F930F0002B363DE003389AE40131E5F0093060900233424F9E34099FE930600026388C32D3307174133470703131757006380E72C630EC32A638CAE2AB38CC3416358902B338DE7406354A02B3388AE406352002F130500026354A82EB308C3406356102F83A3420303AEC20363C4A8009308000203A6C20083A4420103A9C20103E7020383E7820393930302131E0E026344A001130D1000939404021319090203EF820083E9020103EA820183AAC20213160602B3E3E300336EFE006344AD00130D000233E73401B367490193940A0283EA820203ABC204336FE60113A91300132A1E0063449001930C100003B6050283E98204B3E45401931A0B02B385E702B3027E02B38FF301B30BDE0013271F00B367490163C4AC00930C0002233C04F433E53A012330A4F43385E503233CA4F2338592022338A4F633856E022334A4F6033506002338A4F2033586002330A4F6833A0601138BFFFF938BFBFF336CF700D30700F0233494F52330A4F96F008001033584F513051500833C84F4233CA4F463089517033504F5E354A0FE233804F8033584F5033604F43306C502233CC4F6033684F33305A60213152500833904F3B389A9006F008001033504F913051500033D04F82338A4F8E304A5FB033584F8E354A0FE93000000033704F9033584F73305A700033604F73306E602033784F63305A70213162600833704F6B387C7006F00C00093801000E38810FB930C0000B384D002B384A4006F00C00133869401131626003386CA00938C1C002720E600E38A0CFD5387F720E3120CFE130700005387F7206F00C00013071700E308E7FD930F00003306B7023303570213162600131323003386C900338967006F00C000938F1F00E38A7FFCB38E1F00E3CA0EFEE3D86EFF13030000B38E7E03338ACF03939E2E00131A2A00B30DD601330A49016F00C00033036D00E354C3FD330D6E40B30E9301577D0D0DE3C60EFEE3D47EFF939E2E00B38EDD0107E40E02931E2300B30EDA0187E40E0257948492D764004257948406D71680425377D7006FF09FFB13050000130104F38330810C0334010C8334810B0339010B8339810A033A010A833A8109033B0109833B8108033C0108833C8107033D0107833D81061301010D678000001308100013050002E340A8D213080002B308C340E34E10D19308100083A3420303AEC203E3DCA8D06FF09FD11B05A5FF971500003335A0009385C5071305F5FF3375B500678000000000000006000000000000000000000000000000000000000000000000000000000000000000000000000000030000003300000000000000000000000000000000000000000000000000000000000000000000000000000000000000000000000000000000000000000000000000000000000000000000000000000001000000000000000000000000000000000000000000000000000000000000000000000000000000000000000000000000000000000000000000000000000000000000000000000000000000000000000000000000000000000000000000000000000000000000001E000000000000000800000000000000FBFFFF6F000000000100000000000000070000000000000070020000000000000800000000000000200100000000000009000000000000001800000000000000F9FFFF6F000000000C00000000000000060000000000000000020000000000000B000000000000001800000000000000050000000000000048020000000000000A0000000000000023000000000000000400000000000000300200000000000000000000000000000000000000000000011101250E1305030E10171B0EB44219110112060000022E001101120640186E0E030E3A0B3B0B49133F190000032400030E3E0B0B0B0000004B0000000400000000000801670000002C00000000000000000062000000D4140000000000000C05000002D4140000000000000C05000001583300000033000000010147000000032F000000050400636F6E666967757265645F6D6F64756C655F636F6E765F64796E616D69635F64697370617463685F302E6D6C697200696E7400636F6E765F64796E616D69635F64697370617463685F305F636F6E765F447844784478447844784478445F6633320064756D70004952454500410000000200000000004F0000002A000000636F6E765F64796E616D69635F64697370617463685F305F636F6E765F447844784478447844784478445F6633320000000000160000000200000000004F00000047000000696E74000000000041F100000072697363760001E700000004100572763634693270315F6D3270305F613270315F663270325F643270325F633270305F763170305F7A696373723270305F7A6966656E6365693270305F7A6D6D756C3170305F7A61616D6F3170305F7A616C7273633170305F7A66686D696E3170305F7A63613170305F7A63643170305F7A76653332663170305F7A76653332783170305F7A76653634643170305F7A76653634663170305F7A76653634783170305F7A7666683170305F7A7666686D696E3170305F7A766C313238623170305F7A766C323536623170305F7A766C3332623170305F7A766C36346231703000F7010000040046000000010101FB0E0D00010101010000000100000100636F6E666967757265645F6D6F64756C655F636F6E765F64796E616D69635F64697370617463685F302E6D6C6972000000000005080A000902D414000000000000030A01032D4A035B4A03C3004A03494A031A4A4B031D4A03284A0603817F4A03FF0082050003817F4A05080603FF00820603817F083C03FF00BA050003817F82050803FF004A050003817F08E4050803FF004A050003817F08E4050803FF008203817F4A03FF008203817F083C03FF004A03817F4A03FF008203817F083C0603FF0002400105000603817F0874050803FF0082050003817F023801050803FF004A03817F08AC03FF008203817F083C03FF004A050003817F4A050803FF008203817FF203FF004A03817F4A03FF004A03817FBA03FF004A03817FBA03FF008203817F4A0603FF0008E40603817F4A0603FF000228010603817F4A0603FF000224010603817F4A0603FF00022C010603817F4A03FF00025C0103817FF20603FF004A0603817F4A03FF0002300103817FF20603FF004A0603817F4A03FF0002300103817F820603FF00F20603817F087403FF00083C03817F820603FF004A08AC0603817FF20603FF00022401820603817FF20603FF004A023019060B4A03FA7E0240010603FF00820603817F4A03FF004A03817F8203FF00BA020800010149524545000000000000000000000000000000000000000000000000000000002300000000020900E02A00000000000000000000000000000100000012000700E0190000000000001C00000000000000002E64796E73796D002E68617368002E64796E737472002E72656C612E64796E002E726F64617461002E65685F6672616D65002E74657874002E646174612E72656C2E726F002E64796E616D6963002E72656C726F5F70616464696E67002E64656275675F616262726576002E64656275675F696E666F002E64656275675F737472002E64656275675F7075626E616D6573002E64656275675F7075627479706573002E72697363762E61747472696275746573002E64656275675F6C696E65002E636F6D6D656E74002E73796D746162002E7368737472746162002E7374727461620000697265655F68616C5F65786563757461626C655F6C6962726172795F7175657279005F44594E414D49430000000000000000000000000000000000000000000000000000000000000000000000000000000000000000000000000000000000000000000000000000000000010000000B0000000200000000000000000200000000000000020000000000003000000000000000030000000100000008000000000000001800000000000000090000000500000002000000000000003002000000000000300200000000000018000000000000000100000000000000040000000000000004000000000000000F000000030000000200000000000000480200000000000048020000000000002300000000000000000000000000000001000000000000000000000000000000170000000400000002000000000000007002000000000000700200000000000020010000000000000100000000000000080000000000000018000000000000002100000001000000020000000000000090030000000000009003000000000000C80000000000000000000000000000001000000000000000000000000000000029000000010000000200000000000000580400000000000058040000000000007C0000000000000000000000000000000800000000000000000000000000000033000000010000000600000000000000D414000000000000D404000000000000280500000000000000000000000000000400000000000000000000000000000039000000010000000300000000000000002A000000000000000A000000000000E00000000000000000000000000000001000000000000000000000000000000046000000060000000300000000000000E02A000000000000E00A000000000000C0000000000000000300000000000000080000000000000010000000000000004F000000080000000300000000000000A02B000000000000A00B00000000000060040000000000000000000000000000010000000000000000000000000000005E0000000100000000000000000000000000000000000000A00B00000000000039000000000000000000000000000000010000000000000000000000000000006C0000000100000000000000000000000000000000000000D90B0000000000004F00000000000000000000000000000001000000000000000000000000000000780000000100000030000000000000000000000000000000280C0000000000006C00000000000000000000000000000001000000000000000100000000000000830000000100000000000000000000000000000000000000940C0000000000004500000000000000000000000000000001000000000000000000000000000000930000000100000000000000000000000000000000000000D90C0000000000001A00000000000000000000000000000001000000000000000000000000000000A30000000300007000000000000000000000000000000000F30C000000000000F200000000000000000000000000000001000000000000000000000000000000B50000000100000000000000000000000000000000000000E50D000000000000FB01000000000000000000000000000001000000000000000000000000000000C10000000100000030000000000000000000000000000000E00F0000000000000500000000000000000000000000000001000000000000000100000000000000CA0000000200000000000000000000000000000000000000E80F0000000000004800000000000000150000000200000008000000000000001800000000000000D200000003000000000000000000000000000000000000003010000000000000E400000000000000000000000000000001000000000000000000000000000000DC000000030000000000000000000000000000000000000014110000000000002C00000000000000000000000000000001000000000000000000000000000000"> : vector<5824xi8>, format = "embedded-elf-riscv_64", mime_type = "application/x-elf"}
  }
  util.func public @conv_dynamic(%arg0: !hal.buffer_view, %arg1: !hal.buffer_view, %arg2: !hal.buffer_view) -> !hal.buffer_view attributes {iree.abi.stub, iree.reflection = {iree.abi.declaration = "sync func @conv_dynamic(%input0: tensor<?x?x?x?xf32>, %input1: tensor<?x?x?x?xf32>, %input2: tensor<?x?x?x?xf32>) -> (%output0: tensor<?x?x?x?xf32>)"}} {
    %c4 = arith.constant 4 : index
    %c0 = arith.constant 0 : index
    %c32_i64 = arith.constant 32 : i64
    %c-1_i64 = arith.constant -1 : i64
    %c32 = arith.constant 32 : index
    %c1 = arith.constant 1 : index
    %0 = util.null : !hal.fence
    %c-1_i32 = arith.constant -1 : i32
    %__device_0 = util.global.load immutable @__device_0 : !hal.device
    %__device_0_executable_0_conv_dynamic_dispatch_0 = util.global.load immutable @__device_0_executable_0_conv_dynamic_dispatch_0 : !hal.executable
    %1 = hal.buffer_view.dim<%arg0 : !hal.buffer_view>[0] : index
    %2 = hal.buffer_view.dim<%arg0 : !hal.buffer_view>[1] : index
    %3 = hal.buffer_view.dim<%arg0 : !hal.buffer_view>[2] : index
    %4 = hal.buffer_view.dim<%arg0 : !hal.buffer_view>[3] : index
    %element_type_f32 = hal.element_type<f32> : i32
    %dense_row_major = hal.encoding_type<dense_row_major> : i32
    hal.buffer_view.assert<%arg0 : !hal.buffer_view> message("input0") shape([%1, %2, %3, %4]) type(%element_type_f32) encoding(%dense_row_major)
    %5 = arith.muli %1, %c4 : index
    %6 = arith.muli %5, %2 : index
    %7 = arith.muli %6, %3 : index
    %8 = arith.muli %7, %4 : index
    %buffer = hal.buffer_view.buffer<%arg0 : !hal.buffer_view> : !hal.buffer
    %allocator = hal.device.allocator<%__device_0 : !hal.device> : !hal.allocator
    hal.buffer.assert<%buffer : !hal.buffer> message("tensor") allocator(%allocator : !hal.allocator) minimum_length(%8) type(DeviceVisible) usage("TransferSource|TransferTarget|Transfer|DispatchStorageRead|DispatchStorageWrite|DispatchStorage")
    %9 = hal.buffer_view.dim<%arg1 : !hal.buffer_view>[0] : index
    %10 = hal.buffer_view.dim<%arg1 : !hal.buffer_view>[1] : index
    %11 = hal.buffer_view.dim<%arg1 : !hal.buffer_view>[2] : index
    %12 = hal.buffer_view.dim<%arg1 : !hal.buffer_view>[3] : index
    hal.buffer_view.assert<%arg1 : !hal.buffer_view> message("input1") shape([%9, %10, %11, %12]) type(%element_type_f32) encoding(%dense_row_major)
    %13 = arith.muli %9, %c4 : index
    %14 = arith.muli %13, %10 : index
    %15 = arith.muli %14, %11 : index
    %16 = arith.muli %15, %12 : index
    %buffer_0 = hal.buffer_view.buffer<%arg1 : !hal.buffer_view> : !hal.buffer
    hal.buffer.assert<%buffer_0 : !hal.buffer> message("tensor") allocator(%allocator : !hal.allocator) minimum_length(%16) type(DeviceVisible) usage("TransferSource|TransferTarget|Transfer|DispatchStorageRead|DispatchStorageWrite|DispatchStorage")
    %17 = hal.buffer_view.dim<%arg2 : !hal.buffer_view>[0] : index
    %18 = hal.buffer_view.dim<%arg2 : !hal.buffer_view>[1] : index
    %19 = hal.buffer_view.dim<%arg2 : !hal.buffer_view>[2] : index
    %20 = hal.buffer_view.dim<%arg2 : !hal.buffer_view>[3] : index
    hal.buffer_view.assert<%arg2 : !hal.buffer_view> message("input2") shape([%17, %18, %19, %20]) type(%element_type_f32) encoding(%dense_row_major)
    %21 = arith.muli %17, %c4 : index
    %22 = arith.muli %21, %18 : index
    %23 = arith.muli %22, %19 : index
    %24 = arith.muli %23, %20 : index
    %buffer_1 = hal.buffer_view.buffer<%arg2 : !hal.buffer_view> : !hal.buffer
    hal.buffer.assert<%buffer_1 : !hal.buffer> message("tensor") allocator(%allocator : !hal.allocator) minimum_length(%24) type(DeviceVisible) usage("TransferSource|TransferTarget|Transfer|DispatchStorageRead|DispatchStorageWrite|DispatchStorage")
    %25 = arith.index_castui %1 : index to i64
    %26 = arith.index_castui %1 : index to i32
    %27 = arith.shrui %25, %c32_i64 : i64
    %28 = arith.trunci %27 : i64 to i32
    %29 = arith.index_castui %2 : index to i64
    %30 = arith.index_castui %2 : index to i32
    %31 = arith.shrui %29, %c32_i64 : i64
    %32 = arith.trunci %31 : i64 to i32
    %33 = arith.index_castui %3 : index to i64
    %34 = arith.index_castui %3 : index to i32
    %35 = arith.shrui %33, %c32_i64 : i64
    %36 = arith.trunci %35 : i64 to i32
    %37 = arith.index_castui %4 : index to i64
    %38 = arith.index_castui %4 : index to i32
    %39 = arith.shrui %37, %c32_i64 : i64
    %40 = arith.trunci %39 : i64 to i32
    %41 = arith.index_castui %9 : index to i64
    %42 = arith.index_castui %9 : index to i32
    %43 = arith.shrui %41, %c32_i64 : i64
    %44 = arith.trunci %43 : i64 to i32
    %45 = arith.index_castui %10 : index to i64
    %46 = arith.index_castui %10 : index to i32
    %47 = arith.shrui %45, %c32_i64 : i64
    %48 = arith.trunci %47 : i64 to i32
    %49 = arith.index_castui %11 : index to i64
    %50 = arith.index_castui %11 : index to i32
    %51 = arith.shrui %49, %c32_i64 : i64
    %52 = arith.trunci %51 : i64 to i32
    %53 = arith.index_castui %12 : index to i64
    %54 = arith.index_castui %12 : index to i32
    %55 = arith.shrui %53, %c32_i64 : i64
    %56 = arith.trunci %55 : i64 to i32
    %57 = arith.index_castui %17 : index to i64
    %58 = arith.index_castui %17 : index to i32
    %59 = arith.shrui %57, %c32_i64 : i64
    %60 = arith.trunci %59 : i64 to i32
    %61 = arith.index_castui %18 : index to i64
    %62 = arith.index_castui %18 : index to i32
    %63 = arith.shrui %61, %c32_i64 : i64
    %64 = arith.trunci %63 : i64 to i32
    %65 = arith.index_castui %19 : index to i64
    %66 = arith.index_castui %19 : index to i32
    %67 = arith.shrui %65, %c32_i64 : i64
    %68 = arith.trunci %67 : i64 to i32
    %69 = arith.index_castui %20 : index to i64
    %70 = arith.index_castui %20 : index to i32
    %71 = arith.shrui %69, %c32_i64 : i64
    %72 = arith.trunci %71 : i64 to i32
    %cmd = hal.command_buffer.create device(%__device_0 : !hal.device) mode("OneShot|AllowInlineExecution") categories("Transfer|Dispatch") affinity(%c-1_i64) : !hal.command_buffer
    %73 = arith.cmpi sle, %1, %c0 : index
    %74 = arith.subi %c0, %1 : index
    %75 = arith.subi %1, %c1 : index
    %76 = arith.select %73, %74, %75 : index
    %77 = arith.divsi %76, %c32 : index
    %78 = arith.subi %c0, %77 : index
    %79 = arith.addi %77, %c1 : index
    %80 = arith.select %73, %78, %79 : index
    %81 = arith.cmpi sle, %9, %c0 : index
    %82 = arith.subi %c0, %9 : index
    %83 = arith.subi %9, %c1 : index
    %84 = arith.select %81, %82, %83 : index
    %85 = arith.divsi %84, %c32 : index
    %86 = arith.subi %c0, %85 : index
    %87 = arith.addi %85, %c1 : index
    %88 = arith.select %81, %86, %87 : index
    %89 = arith.cmpi sle, %19, %c0 : index
    %90 = arith.subi %c0, %19 : index
    %91 = arith.subi %19, %c1 : index
    %92 = arith.select %89, %90, %91 : index
    %93 = arith.divsi %92, %c32 : index
    %94 = arith.subi %c0, %93 : index
    %95 = arith.addi %93, %c1 : index
    %96 = arith.select %89, %94, %95 : index
    %97 = arith.cmpi sle, %20, %c0 : index
    %98 = arith.subi %c0, %20 : index
    %99 = arith.subi %20, %c1 : index
    %100 = arith.select %97, %98, %99 : index
    %101 = arith.divsi %100, %c32 : index
    %102 = arith.subi %c0, %101 : index
    %103 = arith.addi %101, %c1 : index
    %104 = arith.select %97, %102, %103 : index
    %105 = arith.muli %96, %104 overflow<nsw> : index
    %106 = arith.muli %88, %105 overflow<nsw> : index
    %107 = arith.muli %80, %106 overflow<nsw> : index
    hal.command_buffer.dispatch<%cmd : !hal.command_buffer> target(%__device_0_executable_0_conv_dynamic_dispatch_0 : !hal.executable)[%c0] workgroups([%107, %c1, %c1]) constants([%26, %28, %30, %32, %34, %36, %38, %40, %42, %44, %46, %48, %50, %52, %54, %56, %58, %60, %62, %64, %66, %68, %70, %72]) bindings([
      (%buffer : !hal.buffer)[%c0, %8], 
      (%buffer_0 : !hal.buffer)[%c0, %16], 
      (%buffer_1 : !hal.buffer)[%c0, %24]
    ]) flags("None")
    hal.command_buffer.execution_barrier<%cmd : !hal.command_buffer> source("Dispatch|Transfer|CommandRetire") target("CommandIssue|Dispatch|Transfer") flags("None")
    hal.command_buffer.finalize<%cmd : !hal.command_buffer>
    %fence = hal.fence.create device(%__device_0 : !hal.device) flags("None") : !hal.fence
    hal.device.queue.execute<%__device_0 : !hal.device> affinity(%c-1_i64) wait(%0) signal(%fence) commands(%cmd) flags("None")
    %status = hal.fence.await until([%fence]) timeout_millis(%c-1_i32) flags("None") : i32
    util.status.check_ok %status, "failed to wait on timepoint"
    %view = hal.buffer_view.create buffer(%buffer_1 : !hal.buffer)[%c0, %24] shape([%17, %18, %19, %20]) type(%element_type_f32) encoding(%dense_row_major) : !hal.buffer_view
    util.return %view : !hal.buffer_view
  }
}
