module {
  util.global private @__device_0 : !hal.device
  util.initializer {
    %c18_i32 = arith.constant 18 : i32
    %false = arith.constant false
    %c0 = arith.constant 0 : index
    %c1 = arith.constant 1 : index
    %0 = util.null : !hal.device
    %device_count = hal.devices.count : index
    cf.br ^bb1(%c0, %c0, %0 : index, index, !hal.device)
  ^bb1(%1: index, %2: index, %3: !hal.device):  // 2 preds: ^bb0, ^bb4
    %4 = util.cmp.eq %3, %0 : !hal.device
    %5 = arith.cmpi slt, %1, %device_count : index
    %6 = arith.andi %4, %5 : i1
    cf.cond_br %6, ^bb2, ^bb5
  ^bb2:  // pred: ^bb1
    %device_n = hal.devices.get %1 : !hal.device
    %ok, %value = hal.device.query<%device_n : !hal.device> key("hal.device.id" :: "local*") : i1, i1 = false
    cf.cond_br %value, ^bb3, ^bb4(%false : i1)
  ^bb3:  // pred: ^bb2
    %ok_0, %value_1 = hal.device.query<%device_n : !hal.device> key("hal.executable.format" :: "embedded-elf-riscv_64") : i1, i1 = false
    cf.br ^bb4(%value_1 : i1)
  ^bb4(%7: i1):  // 2 preds: ^bb2, ^bb3
    %8 = arith.cmpi eq, %2, %c0 : index
    %9 = arith.select %7, %c1, %c0 : index
    %10 = arith.addi %2, %9 : index
    %11 = arith.andi %7, %8 : i1
    %12 = arith.select %11, %device_n, %0 : !hal.device
    %13 = arith.addi %1, %c1 : index
    cf.br ^bb1(%13, %10, %12 : index, index, !hal.device)
  ^bb5:  // pred: ^bb1
    cf.cond_br %4, ^bb6, ^bb7
  ^bb6:  // pred: ^bb5
    util.status.check_ok %c18_i32, "HAL device `__device_0` not found or unavailable: #hal.device.target<\22local\22, [#hal.executable.target<\22llvm-cpu\22, \22embedded-elf-riscv_64\22, {cpu = \22\22, cpu_features = \22+m,+a,+f,+d,+zvl256b,+v\22, data_layout = \22e-m:e-p:64:64-i64:64-i128:128-n32:64-S128\22, iree.encoding.resolver = #iree_cpu.cpu_encoding_resolver<>, max_stack_allocation_size = 32768 : i64, native_vector_size = 64 : i64, target_abi = \22lp64d\22, target_triple = \22riscv64-unknown-unknown-eabi-elf\22, ukernels = \22all\22}>]>"
    cf.br ^bb7
  ^bb7:  // 2 preds: ^bb5, ^bb6
    util.global.store %3, @__device_0 : !hal.device
    util.return
  }
  util.global private @__device_0_query_0_hal_executable_format_embedded_elf_riscv_64 : i1
  util.initializer {
    %__device_0 = util.global.load @__device_0 : !hal.device
    %ok, %value = hal.device.query<%__device_0 : !hal.device> key("hal.executable.format" :: "embedded-elf-riscv_64") : i1, i1 = false
    util.global.store %value, @__device_0_query_0_hal_executable_format_embedded_elf_riscv_64 : i1
    util.return
  }
  util.global private @__device_0_executable_0_matmul_dynamic_dispatch_0 : !hal.executable
  util.initializer {
    %0 = util.null : !hal.executable
    %c14_i32 = arith.constant 14 : i32
    %c0 = arith.constant 0 : index
    %c-1 = arith.constant -1 : index
    %c-1_i64 = arith.constant -1 : i64
    %__device_0_query_0_hal_executable_format_embedded_elf_riscv_64 = util.global.load @__device_0_query_0_hal_executable_format_embedded_elf_riscv_64 : i1
    %__device_0 = util.global.load @__device_0 : !hal.device
    %1 = arith.select %__device_0_query_0_hal_executable_format_embedded_elf_riscv_64, %c0, %c-1 : index
    %2 = arith.cmpi eq, %1, %c0 : index
    cf.cond_br %2, ^bb1, ^bb2
  ^bb1:  // pred: ^bb0
    %executable = hal.executable.create device(%__device_0 : !hal.device) affinity(%c-1_i64) target(@matmul_dynamic_dispatch_0::@embedded_elf_riscv_64) : !hal.executable
    cf.br ^bb3(%executable : !hal.executable)
  ^bb2:  // pred: ^bb0
    util.status.check_ok %c14_i32, "HAL device `__device_0` does not support any variant of executable `matmul_dynamic_dispatch_0`; available formats: [embedded-elf-riscv_64]"
    cf.br ^bb3(%0 : !hal.executable)
  ^bb3(%3: !hal.executable):  // 2 preds: ^bb1, ^bb2
    util.global.store %3, @__device_0_executable_0_matmul_dynamic_dispatch_0 : !hal.executable
    util.return
  }
  hal.executable private @matmul_dynamic_dispatch_0 {
    hal.executable.binary public @embedded_elf_riscv_64 attributes {data = dense<"0x7F454C460201010000000000000000000300F30001000000000000000000000040000000000000004810000000000000050000004000380008004000160014000600000004000000400000000000000040000000000000004000000000000000C001000000000000C00100000000000008000000000000000100000004000000000000000000000000000000000000000000000000000000C804000000000000C80400000000000000100000000000000100000005000000C804000000000000C814000000000000C814000000000000EC04000000000000EC0400000000000000100000000000000100000006000000C009000000000000C029000000000000C029000000000000A001000000000000400600000000000000100000000000000200000006000000A00A000000000000A02A000000000000A02A000000000000C000000000000000C000000000000000080000000000000052E5746404000000C009000000000000C029000000000000C029000000000000A0010000000000004006000000000000010000000000000051E574640600000000000000000000000000000000000000000000000000000000000000000000000000000000000000000000000000000003000070040000009D0C00000000000000000000000000000000000000000000F200000000000000F2000000000000000100000000000000000000000000000000000000000000000000000000000000010000001200070098190000000000001C0000000000000002000000020000000000000001000000000000000000000000697265655F68616C5F65786563757461626C655F6C6962726172795F7175657279000000000000C82900000000000003000000000000009003000000000000D8290000000000000300000000000000C814000000000000E0290000000000000300000000000000F003000000000000F02900000000000003000000000000001304000000000000082A00000000000003000000000000005004000000000000102A00000000000003000000000000005004000000000000202A0000000000000300000000000000C029000000000000402A0000000000000300000000000000D829000000000000482A0000000000000300000000000000B003000000000000602A0000000000000300000000000000E029000000000000782A0000000000000300000000000000E829000000000000802A0000000000000300000000000000002A0000000000006D61746D756C5F64796E616D69635F64697370617463685F3000000000000000000000000000000000000602010000000100000001000000000000000000000000000000000000000000000000000000000000000000000000000000000000006D61746D756C5F64796E616D69635F64697370617463685F305F7061636B5F6633320064756D702F636F6E666967757265645F6D6F64756C655F6D61746D756C5F64796E616D69635F64697370617463685F302E6D6C697200000000000000001000000000000000017A5200017801011B0C020048000000180000005C100000D00400000002AC0EF00F70810188029203930494059506960797089809990A9A0B9B0C440C080003B8030C02F00F70C1C8D2D3D4D5D6D7D8D9DADB440E0000001000000064000000E01400001C000000000000000000000003B5850183264501036705018327C5000365850093960602B3E8E60093960702635410031387F8FFB3E6A6001355F7431355A5033305A70013556540634410033305A0406F00400233071041B3E6A6001355F7431355A5033305A70013556540E35010FF1305150003660600B347A6021358F5033305F502B342A6003307A640333550003375A8003383A74093173300B382F64013058000131867009383020063C4A20093038000130101812334117E2330817E233C217D2338317D2334417D2330517D233C617B2338717B2334817B2330917B233CA1792338B1791304017F13010180130101EF137101FC33850841130E000413060500233CA1026344C501130600046386F63863840839371E0000930E0104939633003383680283B30502131FB700939558003387CE01130E00081313630033080301130310002320C7012302670003B3030083B38300338EB70293172800B307F3003388E3013308C80193982800130F0000635C501A9B020600138586FF93038000130E01046F0040013308B800B387B700138F8E0063DAAE18930E0F0063505006130F0000930F08001389070093090000138A0F00930A0900130B4000938B0A00130C0A0083CC0B00130BFBFF23009C01130C1C00938B1B00E3160BFE130A4A0093891900B38A1A01E39879FC938F0F02130F1F0013094900E31A5FFAE3D6C2F8138F02006F00C000338FEF01E35ECFF6832F07003309E64163C42F01930F0900034947006302090293995F00635E300313090104B30939012300090013091900E31C39FF6F00400213993F00635E200193995F0013090104B30939012320090013094900E31C39FFE350F0FB93090000131A2F0013992F00338A4701930A0104330B3903330B6901330B6E01930B0A00138C0A0083CC0B0023009C01130C1C00938B1B00E3186CFFB38A2A0193891900330A1A01E39679FC93090000131A5F00330A4801930A0104130B0000939B2900938B4B00130C0A00938C0A00330D6903338DAB01330DAE01938D0C0093000C0003C30D00938D1D002380600093801000E398ADFF130C4C00130B1B00B38C2C01E3167BFC130A0A0293891900938A4A00E394F9FB6FF05FEE6358DF1693020104130380006F0040013308B800130F8F00B387B700635ADF14B383E641332E7000330EC041337E7E0063446E00130E800003358103E35AA0FC930E00006F00C000B38EDF01E3D2CEFC832F07003309D64163C42F01930F0900034947006302090293995F00635E300313090104B30939012300090013091900E31C39FF6F00400213993F00635E200193995F0013090104B30939012320090013094900E31C39FF13992F0063587004E35CF0F993090000139A2E00338A4701930A0104330B3903330B6901338B6201930B0A00138C0A0083CC0B0023009C01130C1C00938B1B00E3186CFFB38A2A0193891900330A1A01E396C9FDE356F0F593090000139A5E00330A4801930A0104130B0000939B2900938B4B00130C0A00938C0A00330D6903338DAB01338DA201938D0C0093000C0003C50D00938D1D002380A00093801000E398ADFF130C4C00130B1B00B38C2C01E3166BFC130A0A0293891900938A4A00E394F9FB6FF0DFED13050000130104818330817E0334017E0339817D8339017D033A817C833A017C033B817B833B017B033C817A833C017A033D8179833D01791301017F678000001B05A5FF971500003335A000938545081305F5FF3375B5006780000000000000000000000000000006000000000000000000000000000000000000000000000000000000000000000000000000000000030000003500000000000000000000000000000000000000000000000000000000000000000000000000000000000000000000000000000000000000000000000000000000000000000000000000000001000000000000000000000000000000000000000000000000000000000000000000000000000000000000000000000000000000000000000000000000000000000000000000000000000000000000000000000000000000000000000000000000000000000000001E000000000000000800000000000000FBFFFF6F000000000100000000000000070000000000000070020000000000000800000000000000200100000000000009000000000000001800000000000000F9FFFF6F000000000C00000000000000060000000000000000020000000000000B000000000000001800000000000000050000000000000048020000000000000A0000000000000023000000000000000400000000000000300200000000000000000000000000000000000000000000011101250E1305030E10171B0EB44219110112060000022E001101120640186E0E030E3A0B3B0B49133F190000032400030E3E0B0B0B0000004B00000004000000000008015D0000002C00000000000000000035000000C814000000000000D004000002C814000000000000D004000001583A0000003A0000000101470000000331000000050400636F6E666967757265645F6D6F64756C655F6D61746D756C5F64796E616D69635F64697370617463685F302E6D6C697200696E740064756D70006D61746D756C5F64796E616D69635F64697370617463685F305F7061636B5F663332004952454500350000000200000000004F0000002A0000006D61746D756C5F64796E616D69635F64697370617463685F305F7061636B5F6633320000000000160000000200000000004F00000047000000696E74000000000041F100000072697363760001E700000004100572763634693270315F6D3270305F613270315F663270325F643270325F633270305F763170305F7A696373723270305F7A6966656E6365693270305F7A6D6D756C3170305F7A61616D6F3170305F7A616C7273633170305F7A66686D696E3170305F7A63613170305F7A63643170305F7A76653332663170305F7A76653332783170305F7A76653634643170305F7A76653634663170305F7A76653634783170305F7A7666683170305F7A7666686D696E3170305F7A766C313238623170305F7A766C323536623170305F7A766C3332623170305F7A766C3634623170300053010000040048000000010101FB0E0D00010101010000000100000100636F6E666967757265645F6D6F64756C655F6D61746D756C5F64796E616D69635F64697370617463685F302E6D6C6972000000000005080A000902C814000000000000030C01030F4A03734A5203764A03104A4B037A4A03144A0603544A032C820500035408E40508032C4A0354083C06032C4A060354023C0106032C024801060354083C06032C4A06035482032C8206036182031F4A0500060354820508032C82035402680106032C022401060354023C01032C820682060354BA06032C4A060354F2032C4A0354083C032C4A035408E406032C083C060354023801032C4A0354BA032C4A035402600106032CBAF2060354083C032C083C0682060354BA06032C4A060354F2032C4A0354083C032C4A035408AC032C4A03548206032CF2060354023C01032C4A0354BA032C4A06025C14060B4A023C000101495245450000000000000000000000000000000000000000000000000000000000002300000000020900A02A0000000000000000000000000000010000001200070098190000000000001C00000000000000002E64796E73796D002E68617368002E64796E737472002E72656C612E64796E002E726F64617461002E65685F6672616D65002E74657874002E646174612E72656C2E726F002E64796E616D6963002E72656C726F5F70616464696E67002E64656275675F616262726576002E64656275675F696E666F002E64656275675F737472002E64656275675F7075626E616D6573002E64656275675F7075627479706573002E72697363762E61747472696275746573002E64656275675F6C696E65002E636F6D6D656E74002E73796D746162002E7368737472746162002E7374727461620000697265655F68616C5F65786563757461626C655F6C6962726172795F7175657279005F44594E414D49430000000000000000000000000000000000000000000000000000000000000000000000000000000000000000000000000000000000000000000000000000000000010000000B0000000200000000000000000200000000000000020000000000003000000000000000030000000100000008000000000000001800000000000000090000000500000002000000000000003002000000000000300200000000000018000000000000000100000000000000040000000000000004000000000000000F000000030000000200000000000000480200000000000048020000000000002300000000000000000000000000000001000000000000000000000000000000170000000400000002000000000000007002000000000000700200000000000020010000000000000100000000000000080000000000000018000000000000002100000001000000020000000000000090030000000000009003000000000000C0000000000000000000000000000000100000000000000000000000000000002900000001000000020000000000000050040000000000005004000000000000780000000000000000000000000000000800000000000000000000000000000033000000010000000600000000000000C814000000000000C804000000000000EC0400000000000000000000000000000400000000000000000000000000000039000000010000000300000000000000C029000000000000C009000000000000E00000000000000000000000000000001000000000000000000000000000000046000000060000000300000000000000A02A000000000000A00A000000000000C0000000000000000300000000000000080000000000000010000000000000004F000000080000000300000000000000602B000000000000600B000000000000A0040000000000000000000000000000010000000000000000000000000000005E0000000100000000000000000000000000000000000000600B00000000000039000000000000000000000000000000010000000000000000000000000000006C0000000100000000000000000000000000000000000000990B0000000000004F00000000000000000000000000000001000000000000000000000000000000780000000100000030000000000000000000000000000000E80B00000000000062000000000000000000000000000000010000000000000001000000000000008300000001000000000000000000000000000000000000004A0C0000000000003900000000000000000000000000000001000000000000000000000000000000930000000100000000000000000000000000000000000000830C0000000000001A00000000000000000000000000000001000000000000000000000000000000A300000003000070000000000000000000000000000000009D0C000000000000F200000000000000000000000000000001000000000000000000000000000000B500000001000000000000000000000000000000000000008F0D0000000000005701000000000000000000000000000001000000000000000000000000000000C10000000100000030000000000000000000000000000000E60E0000000000000500000000000000000000000000000001000000000000000100000000000000CA0000000200000000000000000000000000000000000000F00E0000000000004800000000000000150000000200000008000000000000001800000000000000D20000000300000000000000000000000000000000000000380F000000000000E400000000000000000000000000000001000000000000000000000000000000DC00000003000000000000000000000000000000000000001C100000000000002C00000000000000000000000000000001000000000000000000000000000000"> : vector<5576xi8>, format = "embedded-elf-riscv_64", mime_type = "application/x-elf"}
  }
  util.func public @matmul_dynamic(%arg0: !hal.buffer_view) -> !hal.buffer_view attributes {iree.abi.stub, iree.reflection = {iree.abi.declaration = "sync func @matmul_dynamic(%input0: tensor<?x?xf32>) -> (%output0: tensor<?x?x8x1xf32>)"}} {
    %buffer_usage = hal.buffer_usage<"TransferSource|TransferTarget|Transfer|DispatchStorageRead|DispatchStorageWrite|DispatchStorage"> : i32
    %memory_type = hal.memory_type<"DeviceVisible|DeviceLocal"> : i32
    %c8 = arith.constant 8 : index
    %c4 = arith.constant 4 : index
    %c32 = arith.constant 32 : index
    %c0 = arith.constant 0 : index
    %c32_i64 = arith.constant 32 : i64
    %c-1_i64 = arith.constant -1 : i64
    %0 = util.null : !hal.fence
    %c0_i64 = arith.constant 0 : i64
    %c1 = arith.constant 1 : index
    %c64 = arith.constant 64 : index
    %c-1_i32 = arith.constant -1 : i32
    %__device_0 = util.global.load immutable @__device_0 : !hal.device
    %__device_0_executable_0_matmul_dynamic_dispatch_0 = util.global.load immutable @__device_0_executable_0_matmul_dynamic_dispatch_0 : !hal.executable
    %1 = hal.buffer_view.dim<%arg0 : !hal.buffer_view>[0] : index
    %2 = hal.buffer_view.dim<%arg0 : !hal.buffer_view>[1] : index
    %element_type_f32 = hal.element_type<f32> : i32
    %dense_row_major = hal.encoding_type<dense_row_major> : i32
    hal.buffer_view.assert<%arg0 : !hal.buffer_view> message("input0") shape([%1, %2]) type(%element_type_f32) encoding(%dense_row_major)
    %3 = arith.muli %1, %c4 : index
    %4 = arith.muli %3, %2 : index
    %buffer = hal.buffer_view.buffer<%arg0 : !hal.buffer_view> : !hal.buffer
    %allocator = hal.device.allocator<%__device_0 : !hal.device> : !hal.allocator
    hal.buffer.assert<%buffer : !hal.buffer> message("tensor") allocator(%allocator : !hal.allocator) minimum_length(%4) type(DeviceVisible) usage("TransferSource|TransferTarget|Transfer|DispatchStorageRead|DispatchStorageWrite|DispatchStorage")
    %5 = arith.ceildivsi %1, %c8 : index
    %6 = arith.muli %5, %c32 : index
    %7 = arith.muli %6, %2 : index
    %fence = hal.fence.create device(%__device_0 : !hal.device) flags("None") : !hal.fence
    %transient_buffer = hal.device.queue.alloca<%__device_0 : !hal.device> affinity(%c-1_i64) wait(%0) signal(%fence) pool(%c0_i64) type(%memory_type) usage(%buffer_usage) flags("None") : !hal.buffer{%7}
    %8 = arith.index_castui %1 : index to i64
    %9 = arith.index_castui %1 : index to i32
    %10 = arith.shrui %8, %c32_i64 : i64
    %11 = arith.trunci %10 : i64 to i32
    %12 = arith.index_castui %5 : index to i64
    %13 = arith.index_castui %5 : index to i32
    %14 = arith.shrui %12, %c32_i64 : i64
    %15 = arith.trunci %14 : i64 to i32
    %16 = arith.index_castui %2 : index to i64
    %17 = arith.index_castui %2 : index to i32
    %18 = arith.shrui %16, %c32_i64 : i64
    %19 = arith.trunci %18 : i64 to i32
    %cmd = hal.command_buffer.create device(%__device_0 : !hal.device) mode(OneShot) categories("Transfer|Dispatch") affinity(%c-1_i64) : !hal.command_buffer
    %20 = arith.cmpi sle, %5, %c0 : index
    %21 = arith.subi %c0, %5 : index
    %22 = arith.subi %5, %c1 : index
    %23 = arith.select %20, %21, %22 : index
    %24 = arith.divsi %23, %c8 : index
    %25 = arith.subi %c0, %24 : index
    %26 = arith.addi %24, %c1 : index
    %27 = arith.select %20, %25, %26 : index
    %28 = arith.cmpi sle, %2, %c0 : index
    %29 = arith.subi %c0, %2 : index
    %30 = arith.subi %2, %c1 : index
    %31 = arith.select %28, %29, %30 : index
    %32 = arith.divsi %31, %c64 : index
    %33 = arith.subi %c0, %32 : index
    %34 = arith.addi %32, %c1 : index
    %35 = arith.select %28, %33, %34 : index
    %36 = arith.muli %27, %35 overflow<nsw> : index
    hal.command_buffer.dispatch<%cmd : !hal.command_buffer> target(%__device_0_executable_0_matmul_dynamic_dispatch_0 : !hal.executable)[%c0] workgroups([%36, %c1, %c1]) constants([%9, %11, %13, %15, %17, %19]) bindings([
      (%buffer : !hal.buffer)[%c0, %4], 
      (%transient_buffer : !hal.buffer)[%c0, %7]
    ]) flags("None")
    hal.command_buffer.execution_barrier<%cmd : !hal.command_buffer> source("Dispatch|Transfer|CommandRetire") target("CommandIssue|Dispatch|Transfer") flags("None")
    hal.command_buffer.finalize<%cmd : !hal.command_buffer>
    %fence_0 = hal.fence.create device(%__device_0 : !hal.device) flags("None") : !hal.fence
    hal.device.queue.execute<%__device_0 : !hal.device> affinity(%c-1_i64) wait(%fence) signal(%fence_0) commands(%cmd) flags("None")
    %status = hal.fence.await until([%fence_0]) timeout_millis(%c-1_i32) flags("None") : i32
    util.status.check_ok %status, "failed to wait on timepoint"
    %view = hal.buffer_view.create buffer(%transient_buffer : !hal.buffer)[%c0, %7] shape([%5, %2, %c8, %c1]) type(%element_type_f32) encoding(%dense_row_major) : !hal.buffer_view
    util.return %view : !hal.buffer_view
  }
}
